000000:940C
000001:0032
000002:940C
000003:0000
000004:940C
000005:0000
000006:940C
000007:0000
000008:940C
000009:0000
00000A:940C
00000B:0000
00000C:940C
00000D:0000
00000E:940C
00000F:0000
000010:940C
000011:0000
000012:940C
000013:0000
000014:940C
000015:0000
000016:940C
000017:0000
000018:940C
000019:0000
00001A:940C
00001B:0000
00001C:940C
00001D:0000
00001E:940C
00001F:0000
000020:940C
000021:0000
000022:940C
000023:0000
000024:940C
000025:0000
000026:940C
000027:0000
000028:940C
000029:0000
00002A:0001
00002B:4E2D
00002C:4E41
00002D:0000
00002E:0001
00002F:0160
000030:0054
000031:0000
000032:94F8
000033:27EE
000034:BBEC
000035:E0F1
000036:BFFB
000037:BFEB
000038:BFE5
000039:E1F8
00003A:BDF1
00003B:BDE1
00003C:E08D
00003D:E0A2
00003E:27BB
00003F:93ED
000040:958A
000041:F7E9
000042:E080
000043:E094
000044:E6A0
000045:93ED
000046:9701
000047:F7E9
000048:E5EC
000049:E0F0
00004A:9185
00004B:9195
00004C:9700
00004D:F061
00004E:91A5
00004F:91B5
000050:9005
000051:9015
000052:01BF
000053:01F0
000054:9005
000055:920D
000056:9701
000057:F7E1
000058:01FB
000059:CFF0
00005A:E5EF
00005B:BFED
00005C:E0E4
00005D:BFEE
00005E:E6C0
00005F:E0D1
000060:940C
000061:0062
000062:E8E0
000063:E2F5
000064:E060
000065:E070
000066:940E
000067:0166
000068:E0E8
000069:93EA
00006A:D01D
00006B:9A8D
00006C:E8E3
00006D:BDEF
00006E:E0E2
00006F:BDEE
000070:E0E0
000071:E0F0
000072:BDFB
000073:BDEA
000074:E4E0
000075:B9E7
000076:ECE5
000077:B9E6
000078:D052
000079:35E2
00007A:F459
00007B:9A36
00007C:9936
00007D:CFFE
00007E:B104
00007F:B115
000080:931A
000081:930A
000082:D061
000083:E0EA
000084:93EA
000085:D049
000086:CFF1
000087:CFFF
000088:931A
000089:930A
00008A:81AB
00008B:81BC
00008C:818D
00008D:819E
00008E:36AE
00008F:E0E0
000090:07BE
000091:E0E0
000092:078E
000093:E0E0
000094:079E
000095:F068
000096:30A1
000097:ECE2
000098:07BE
000099:E0E1
00009A:078E
00009B:E0E0
00009C:079E
00009D:F428
00009E:81AA
00009F:30A5
0000A0:F010
0000A1:30A9
0000A2:F008
0000A3:C023
0000A4:E2E0
0000A5:B9EB
0000A6:E1E8
0000A7:B9EA
0000A8:81AA
0000A9:50A5
0000AA:2FEA
0000AB:0FEE
0000AC:68E0
0000AD:BDE0
0000AE:81EB
0000AF:81FC
0000B0:816D
0000B1:817E
0000B2:E1A0
0000B3:E0B0
0000B4:E080
0000B5:E090
0000B6:940E
0000B7:0121
0000B8:E0A0
0000B9:E4B0
0000BA:E388
0000BB:E090
0000BC:940E
0000BD:0141
0000BE:50E1
0000BF:40F0
0000C0:4060
0000C1:4070
0000C2:018F
0000C3:2FE1
0000C4:70F0
0000C5:BDE0
0000C6:B909
0000C7:8119
0000C8:8108
0000C9:9627
0000CA:9508
0000CB:9B5F
0000CC:CFFE
0000CD:B1EC
0000CE:9508
0000CF:9B5D
0000D0:CFFE
0000D1:81E8
0000D2:B9EC
0000D3:9621
0000D4:9508
0000D5:81A8
0000D6:81B9
0000D7:91EC
0000D8:30E0
0000D9:F041
0000DA:93EA
0000DB:DFF3
0000DC:81E8
0000DD:81F9
0000DE:9631
0000DF:83E8
0000E0:83F9
0000E1:CFF3
0000E2:9622
0000E3:9508
0000E4:9727
0000E5:81EF
0000E6:85F8
0000E7:93FA
0000E8:93EA
0000E9:01FE
0000EA:9632
0000EB:93FA
0000EC:93EA
0000ED:940E
0000EE:00F5
0000EF:01FE
0000F0:93FA
0000F1:93EA
0000F2:DFE2
0000F3:9629
0000F4:9508
0000F5:91A9
0000F6:91B9
0000F7:91E9
0000F8:91F9
0000F9:9630
0000FA:F42A
0000FB:95E0
0000FC:95F0
0000FD:9631
0000FE:E26D
0000FF:936D
000100:94E8
000101:E180
000102:E297
000103:D00D
000104:EE88
000105:E093
000106:D00A
000107:E684
000108:2799
000109:D007
00010A:E08A
00010B:D005
00010C:2F6E
00010D:D010
00010E:2766
00010F:936C
000110:9508
000111:2766
000112:17E8
000113:07F9
000114:F020
000115:9563
000116:1BE8
000117:0BF9
000118:F7C9
000119:2366
00011A:F411
00011B:F016
00011C:9508
00011D:9468
00011E:5D60
00011F:936D
000120:9508
000121:9F7A
000122:2D70
000123:9F6B
000124:0D70
000125:9FF8
000126:0D70
000127:9FE9
000128:0D70
000129:9F6A
00012A:2D60
00012B:0D71
00012C:9FFB
00012D:0D60
00012E:1D71
00012F:9FE8
000130:0D60
000131:1D71
000132:2788
000133:9FFA
000134:2DF0
000135:0D61
000136:1F78
000137:9FEB
000138:0DF0
000139:1D61
00013A:1F78
00013B:9FEA
00013C:2DE0
00013D:0DF1
00013E:1F68
00013F:1F78
000140:9508
000141:933F
000142:934F
000143:935F
000144:2400
000145:2411
000146:2744
000147:2755
000148:E230
000149:0FAA
00014A:1FBB
00014B:1F88
00014C:1F99
00014D:1C00
00014E:1C11
00014F:1F44
000150:1F55
000151:1A0E
000152:0A1F
000153:0B46
000154:0B57
000155:F428
000156:0E0E
000157:1E1F
000158:1F46
000159:1F57
00015A:C001
00015B:60A1
00015C:953A
00015D:F759
00015E:01FD
00015F:01BC
000160:01D0
000161:01CA
000162:915F
000163:914F
000164:913F
000165:9508
000166:937A
000167:936A
000168:93FA
000169:93EA
00016A:9508
